00111110110110001000100110100011
00111110011011000111101011001011
00111110001010000000101001010001
00111110111001101111111011110010
00111110101001100111111101100011
00111111011101100011100001111100
00111111001011100010010111010001
00111111010010010111001000001101
00111111011001110100000000100000
00111111000011100110110100001010
00111110001011111011000111101100
00111110011001110010001001000000
00111110110011111100100111100100
00111111001110010101101000100001
00111110000100000111000100010010
00111110110100111111110100110011
00111111001000101011010000101010
00111111010101010111101101010000
00111111011001011010100010001111
00111111011011010101101110110001
00111111011011110001101110001011
00111111001011100101111111010011
00111110111100111000100100100001
00111111001011111001011000001100
00111101011000000001100110110000
00111111010110010011000100011000
00111110001010110100000001110011
00111110100110010101000100111000
00111111000000010101100100110011
00111110010011010100110001011101
00111111000100001011000001101111
00111111001000000001110010010101
00111110101100010010011111000010
00111111001001010111100000000100
00111110100111100011010101101111
00111111010101001000011100010000
00111111001100010110100111011101
00111110101001000111011100101100
00111111000011111010101100111000
00111110110101100100111111011100
00111110001110101111001110010001
00111111000011011101110101110101
00111111001000000010011111110010
00111110110100101001110001010000
00111110101111001000001011010001
00111110010101101010000011101111
00111110111001011010101001010001
00111110101011000000000101010010
00111101110011110111011101011000
00111111000101110001000000101101
00111110000100100010001110000100
00111011110111000011010100000011
00111111001000001111001001001000
00111111011000110110001000000001
00111101100010000101010010010111
00111111011100110011111010110000
00111110101000100101100110110101
00111111000000010100010001001000
00111101100011000101111110010001
00111111011100111111010000011000
00111111001001000100001100101011
00111111001111101000010100101000
00111110001110011101011010100011
00111110101110010101101000110111
